#version: 0.2
a t
r e
i n
a n
e r
o n
e n
o r
s t
i t
a l
Ġ c
Ġ p
i on
Ġ s
e s
Ġ (
Ġ d
Ġ t
en t
Ġ m
i c
Ġ f
in g
an d
Ġ a
Ġ re
Ġ in
e d
a r
g e
at ion
m ent
Ġf or
r o
Ġ b
Ġ and
e t
r a
c t
l o
it y
Ġ w
i l
s s
at er
Ġc o
i d
i m
Ġ 1
i s
l e
Ġ S
v e
Ġ h
Ġt o
u re
Ġ u
e m
o l
Ġ g
Ġ o
a ge
c e
r i
u l
Ġ P
re at
) ,
a s
ic al
reat ment
) ;
l y
p e
u m
v er
Ġ C
Ġ E
Ġc on
0 0
i g
Ġ 2
Ġ 3
Ġ e
Ġ n
Ġ st
Ġt reatment
f f
l u
q u
u r
Ġ 5
Ġ B
Ġ M
Ġ T
Ġw ater
a in
c h
e w
o s
lo w
a b
h e
r u
s e
u t
Ġ 4
Ġ 6
an t
Ġc a
Ġp ro
Ġs u
e a
i z
i es
p p
Ġ A
Ġ l
Ġ or
re ss
Ġp er
Ġd i
Ġo f
lu d
a y
Ġ 9
Ġ L
Ġ N
at e
st em
Ġp i
es s
Ġd e
) :
a m
o d
y stem
Ġ 7
Ġ =
Ġ I
at ed
er ation
or m
st ru
Ġp l
Ġin f
et w
lud ge
stru ct
a c
b an
d u
i al
Ġ D
Ġ is
at or
en s
or k
st ment
Ġp ress
Ġs ystem
Ġt he
Ġa re
ar y
ra struct
Ġco st
ol id
ver age
ig n
Ġca p
ĠI n
rastruct ure
a st
o p
p l
£ o
§ Ã
Â ³
Ã §Ã
Ġ 8
Ġ R
an ce
it h
it ies
Ġs ludge
es ign
Ġm et
Ġin ve
ct ion
ri b
ant s
pp ly
etw ork
olid s
1 5
2 0
c on
d s
g ul
i f
i o
o v
p os
r ban
u n
u st
Ġ 0
Ġ r
Ġ lo
in im
er s
en c
it s
al ity
Ġd is
ent ion
Ġre du
ar ge
ation s
Ġb e
Ġw ith
ĠS N
Ġg ro
ig h
Ġe x
Ġn etwork
Ġsu pply
Ġinf rastructure
Ġpress ure
Ã§Ã £o
Ġinve stment
B R
I S
T E
c re
g an
i v
i re
i ff
k m
m ov
n ing
o st
p ical
s id
t il
u e
y pical
Ġ <
Ġ W
Ġ v
Ġ at
Ġ on
Ġ qu
an ning
er v
st rib
Ġs e
Ġs ew
Ġd em
Ġd ay
Ġd esign
Ġt ypical
Ġa c
Ġco l
Ġco m
Ġu rban
Ġu til
Ġg ra
ut ion
Ġdi strib
Ġpi pe
ens ity
Ġsystem s
pos al
Ġqu ality
3 0
W h
a d
a g
a Ã§Ã£o
c ess
f il
f orm
o m
o ur
r it
t h
u se
Â ²
Ã Ĺ
Ġ F
Ġ K
Ġ ÃĹ
re en
in e
an it
er g
it a
it ion
Ġp e
Ġs olids
Ġm an
Ġm ain
Ġm ust
Ġm inim
Ġf low
and ar
Ġre t
Ġre qu
Ġre mov
ar iff
Ġb y
et er
ra in
ve lo
Ġh ea
Ġh igh
Ġu s
Ġo p
ri f
as e
Ġcon t
Ġst andar
ew ater
ea k
Ġl im
Ġpi p
ac ity
ator y
Ġcap acity
Ġlo ss
Ġdis posal
ĠSN IS
Ġnetwork s
Ġdem and
Ġtypical ly
Ġutil ities
Ġdistrib ution
Wh at
Ġrequ ire
% ),
0 2
5 00
S A
a ct
c ity
c ul
d e
d ary
d ition
e f
h od
i a
i st
l ic
o t
o w
t s
t er
u b
v en
w ater
y e
Ġ %
Ġ G
Ġ H
Ġ an
Ġ le
Ġ low
Ġ velo
an c
er at
on it
en d
en ef
or ing
al l
al cul
Ġc rit
Ġc alcul
Ġs et
Ġs anit
Ġd ensity
Ġt ariff
ent ial
Ġm a
ic i
Ġa v
Ġa ct
Ġa eration
Ġre gul
Ġre use
Ġin cre
Ġb al
Ġw ast
il ity
Ġco verage
im e
Ġ1 0
Ġ1 4
pe x
ĠE TE
Ġcon s
Ġst orm
ab it
Ġor gan
ĠN BR
Ġpl anning
ator s
Ġare as
Ġcost s
Ġcap ita
Ġmet hod
con dary
Ġr at
enc y
Ġredu ce
iv ated
ĠW ater
erg y
Ġret ention
Ġstandar ds
02 6
ven ue
Ġvelo city
onit oring
Ġact ivated
% );
1 0
1 00
O D
O p
a k
a il
c a
c al
c ent
c ed
d ic
d ra
e i
e l
e ch
e ction
g ical
i x
i ve
i os
l s
l ing
m e
o b
o g
o re
p h
p on
p end
r ic
r ation
t o
t ion
u d
u g
u al
v y
v ity
y s
y dra
z il
Ġ >
Ġ j
Ġ en
Ġ it
Ġ al
Ġ im
Ġ rain
Ġ ye
Ġ Op
at a
at ter
in es
it rif
Ġp ol
Ġp op
Ġp eak
Ġp ub
Ġs iz
Ġ( >
Ġ( %),
Ġt ime
Ġm g
Ġm onitoring
ic ro
Ġa s
Ġa er
Ġa pp
Ġre s
Ġre sid
Ġin dic
ge st
ment o
ment s
ro l
ro p
ro ss
Ġb io
ra zil
ct s
lo gical
Ġ1 2
le v
Ġh our
Ġu se
ol um
Ġg reen
age ment
ce ed
ul ic
ul ation
ĠP er
um p
ĠC O
ĠC ost
Ġ2 0
Ġe ff
ĠB razil
ab le
ab ility
Ġca pex
Ġpro fil
Ġper form
Ġdi gest
ĠL and
ĠL ei
am pl
am eter
Ġpl ants
ĠIn f
