{"<pad>":0,"<s>":1,"</s>":2,"<unk>":3,"!":4,"\"":5,"#":6,"$":7,"%":8,"&":9,"'":10,"(":11,")":12,"*":13,"+":14,",":15,"-":16,".":17,"/":18,"0":19,"1":20,"2":21,"3":22,"4":23,"5":24,"6":25,"7":26,"8":27,"9":28,":":29,";":30,"<":31,"=":32,">":33,"?":34,"@":35,"A":36,"B":37,"C":38,"D":39,"E":40,"F":41,"G":42,"H":43,"I":44,"J":45,"K":46,"L":47,"M":48,"N":49,"O":50,"P":51,"Q":52,"R":53,"S":54,"T":55,"U":56,"V":57,"W":58,"X":59,"Y":60,"Z":61,"[":62,"\\":63,"]":64,"^":65,"_":66,"`":67,"a":68,"b":69,"c":70,"d":71,"e":72,"f":73,"g":74,"h":75,"i":76,"j":77,"k":78,"l":79,"m":80,"n":81,"o":82,"p":83,"q":84,"r":85,"s":86,"t":87,"u":88,"v":89,"w":90,"x":91,"y":92,"z":93,"{":94,"|":95,"}":96,"~":97,"¡":98,"¢":99,"£":100,"¤":101,"¥":102,"¦":103,"§":104,"¨":105,"©":106,"ª":107,"«":108,"¬":109,"®":110,"¯":111,"°":112,"±":113,"²":114,"³":115,"´":116,"µ":117,"¶":118,"·":119,"¸":120,"¹":121,"º":122,"»":123,"¼":124,"½":125,"¾":126,"¿":127,"À":128,"Á":129,"Â":130,"Ã":131,"Ä":132,"Å":133,"Æ":134,"Ç":135,"È":136,"É":137,"Ê":138,"Ë":139,"Ì":140,"Í":141,"Î":142,"Ï":143,"Ð":144,"Ñ":145,"Ò":146,"Ó":147,"Ô":148,"Õ":149,"Ö":150,"×":151,"Ø":152,"Ù":153,"Ú":154,"Û":155,"Ü":156,"Ý":157,"Þ":158,"ß":159,"à":160,"á":161,"â":162,"ã":163,"ä":164,"å":165,"æ":166,"ç":167,"è":168,"é":169,"ê":170,"ë":171,"ì":172,"í":173,"î":174,"ï":175,"ð":176,"ñ":177,"ò":178,"ó":179,"ô":180,"õ":181,"ö":182,"÷":183,"ø":184,"ù":185,"ú":186,"û":187,"ü":188,"ý":189,"þ":190,"ÿ":191,"Ā":192,"ā":193,"Ă":194,"ă":195,"Ą":196,"ą":197,"Ć":198,"ć":199,"Ĉ":200,"ĉ":201,"Ċ":202,"ċ":203,"Č":204,"č":205,"Ď":206,"ď":207,"Đ":208,"đ":209,"Ē":210,"ē":211,"Ĕ":212,"ĕ":213,"Ė":214,"ė":215,"Ę":216,"ę":217,"Ě":218,"ě":219,"Ĝ":220,"ĝ":221,"Ğ":222,"ğ":223,"Ġ":224,"ġ":225,"Ģ":226,"ģ":227,"Ĥ":228,"ĥ":229,"Ħ":230,"ħ":231,"Ĩ":232,"ĩ":233,"Ī":234,"ī":235,"Ĭ":236,"ĭ":237,"Į":238,"į":239,"İ":240,"ı":241,"Ĳ":242,"ĳ":243,"Ĵ":244,"ĵ":245,"Ķ":246,"ķ":247,"ĸ":248,"Ĺ":249,"ĺ":250,"Ļ":251,"ļ":252,"Ľ":253,"ľ":254,"Ŀ":255,"ŀ":256,"Ł":257,"ł":258,"Ń":259,"at":260,"re":261,"in":262,"an":263,"er":264,"on":265,"en":266,"or":267,"st":268,"it":269,"al":270,"Ġc":271,"Ġp":272,"ion":273,"Ġs":274,"es":275,"Ġ(":276,"Ġd":277,"Ġt":278,"ent":279,"Ġm":280,"ic":281,"Ġf":282,"ing":283,"and":284,"Ġa":285,"Ġre":286,"Ġin":287,"ed":288,"ar":289,"ge":290,"ation":291,"ment":292,"Ġfor":293,"ro":294,"Ġb":295,"Ġand":296,"et":297,"ra":298,"ct":299,"lo":300,"ity":301,"Ġw":302,"il":303,"ss":304,"ater":305,"Ġco":306,"id":307,"im":308,"Ġ1":309,"is":310,"le":311,"ĠS":312,"ve":313,"Ġh":314,"Ġto":315,"ure":316,"Ġu":317,"em":318,"ol":319,"Ġg":320,"Ġo":321,"age":322,"ce":323,"ri":324,"ul":325,"ĠP":326,"reat":327,"),":328,"as":329,"ical":330,"reatment":331,");":332,"ly":333,"pe":334,"um":335,"ver":336,"ĠC":337,"ĠE":338,"Ġcon":339,"00":340,"ig":341,"Ġ2":342,"Ġ3":343,"Ġe":344,"Ġn":345,"Ġst":346,"Ġtreatment":347,"ff":348,"lu":349,"qu":350,"ur":351,"Ġ5":352,"ĠB":353,"ĠM":354,"ĠT":355,"Ġwater":356,"ain":357,"ch":358,"ew":359,"os":360,"low":361,"ab":362,"he":363,"ru":364,"se":365,"ut":366,"Ġ4":367,"Ġ6":368,"ant":369,"Ġca":370,"Ġpro":371,"Ġsu":372,"ea":373,"iz":374,"ies":375,"pp":376,"ĠA":377,"Ġl":378,"Ġor":379,"ress":380,"Ġper":381,"Ġdi":382,"Ġof":383,"lud":384,"ay":385,"Ġ9":386,"ĠL":387,"ĠN":388,"ate":389,"stem":390,"Ġpi":391,"ess":392,"Ġde":393,"):":394,"am":395,"od":396,"ystem":397,"Ġ7":398,"Ġ=":399,"ĠI":400,"ated":401,"eration":402,"orm":403,"stru":404,"Ġpl":405,"Ġinf":406,"etw":407,"ludge":408,"struct":409,"ac":410,"ban":411,"du":412,"ial":413,"ĠD":414,"Ġis":415,"ator":416,"ens":417,"ork":418,"stment":419,"Ġpress":420,"Ġsystem":421,"Ġthe":422,"Ġare":423,"ary":424,"rastruct":425,"Ġcost":426,"olid":427,"verage":428,"ign":429,"Ġcap":430,"ĠIn":431,"rastructure":432,"ast":433,"op":434,"pl":435,"£o":436,"§Ã":437,"Â³":438,"Ã§Ã":439,"Ġ8":440,"ĠR":441,"ance":442,"ith":443,"ities":444,"Ġsludge":445,"esign":446,"Ġmet":447,"Ġinve":448,"ction":449,"rib":450,"ants":451,"pply":452,"etwork":453,"olids":454,"15":455,"20":456,"con":457,"ds":458,"gul":459,"if":460,"io":461,"ov":462,"pos":463,"rban":464,"un":465,"ust":466,"Ġ0":467,"Ġr":468,"Ġlo":469,"inim":470,"ers":471,"enc":472,"its":473,"ality":474,"Ġdis":475,"ention":476,"Ġredu":477,"arge":478,"ations":479,"Ġbe":480,"Ġwith":481,"ĠSN":482,"Ġgro":483,"igh":484,"Ġex":485,"Ġnetwork":486,"Ġsupply":487,"Ġinfrastructure":488,"Ġpressure":489,"Ã§Ã£o":490,"Ġinvestment":491,"BR":492,"IS":493,"TE":494,"cre":495,"gan":496,"iv":497,"ire":498,"iff":499,"km":500,"mov":501,"ning":502,"ost":503,"pical":504,"sid":505,"til":506,"ue":507,"ypical":508,"Ġ<":509,"ĠW":510,"Ġv":511,"Ġat":512,"Ġon":513,"Ġqu":514,"anning":515,"erv":516,"strib":517,"Ġse":518,"Ġsew":519,"Ġdem":520,"Ġday":521,"Ġdesign":522,"Ġtypical":523,"Ġac":524,"Ġcol":525,"Ġcom":526,"Ġurban":527,"Ġutil":528,"Ġgra":529,"ution":530,"Ġdistrib":531,"Ġpipe":532,"ensity":533,"Ġsystems":534,"posal":535,"Ġquality":536,"30":537,"Wh":538,"ad":539,"ag":540,"aÃ§Ã£o":541,"cess":542,"fil":543,"form":544,"om":545,"our":546,"rit":547,"th":548,"use":549,"Â²":550,"ÃĹ":551,"ĠF":552,"ĠK":553,"ĠÃĹ":554,"reen":555,"ine":556,"anit":557,"erg":558,"ita":559,"ition":560,"Ġpe":561,"Ġsolids":562,"Ġman":563,"Ġmain":564,"Ġmust":565,"Ġminim":566,"Ġflow":567,"andar":568,"Ġret":569,"Ġrequ":570,"Ġremov":571,"ariff":572,"Ġby":573,"eter":574,"rain":575,"velo":576,"Ġhea":577,"Ġhigh":578,"Ġus":579,"Ġop":580,"rif":581,"ase":582,"Ġcont":583,"Ġstandar":584,"ewater":585,"eak":586,"Ġlim":587,"Ġpip":588,"acity":589,"atory":590,"Ġcapacity":591,"Ġloss":592,"Ġdisposal":593,"ĠSNIS":594,"Ġnetworks":595,"Ġdemand":596,"Ġtypically":597,"Ġutilities":598,"Ġdistribution":599,"What":600,"Ġrequire":601,"%),":602,"02":603,"500":604,"SA":605,"act":606,"city":607,"cul":608,"de":609,"dary":610,"dition":611,"ef":612,"hod":613,"ia":614,"ist":615,"lic":616,"ot":617,"ow":618,"ts":619,"ter":620,"ub":621,"ven":622,"water":623,"ye":624,"Ġ%":625,"ĠG":626,"ĠH":627,"Ġan":628,"Ġle":629,"Ġlow":630,"Ġvelo":631,"anc":632,"erat":633,"onit":634,"end":635,"enef":636,"oring":637,"all":638,"alcul":639,"Ġcrit":640,"Ġcalcul":641,"Ġset":642,"Ġsanit":643,"Ġdensity":644,"Ġtariff":645,"ential":646,"Ġma":647,"ici":648,"Ġav":649,"Ġact":650,"Ġaeration":651,"Ġregul":652,"Ġreuse":653,"Ġincre":654,"Ġbal":655,"Ġwast":656,"ility":657,"Ġcoverage":658,"ime":659,"Ġ10":660,"Ġ14":661,"pex":662,"ĠETE":663,"Ġcons":664,"Ġstorm":665,"abit":666,"Ġorgan":667,"ĠNBR":668,"Ġplanning":669,"ators":670,"Ġareas":671,"Ġcosts":672,"Ġcapita":673,"Ġmethod":674,"condary":675,"Ġrat":676,"ency":677,"Ġreduce":678,"ivated":679,"ĠWater":680,"ergy":681,"Ġretention":682,"Ġstandards":683,"026":684,"venue":685,"Ġvelocity":686,"onitoring":687,"Ġactivated":688,"%);":689,"10":690,"100":691,"OD":692,"Op":693,"ak":694,"ail":695,"ca":696,"cal":697,"cent":698,"ced":699,"dic":700,"dra":701,"ei":702,"el":703,"ech":704,"ection":705,"gical":706,"ix":707,"ive":708,"ios":709,"ls":710,"ling":711,"me":712,"ob":713,"og":714,"ore":715,"ph":716,"pon":717,"pend":718,"ric":719,"ration":720,"to":721,"tion":722,"ud":723,"ug":724,"ual":725,"vy":726,"vity":727,"ys":728,"ydra":729,"zil":730,"Ġ>":731,"Ġj":732,"Ġen":733,"Ġit":734,"Ġal":735,"Ġim":736,"Ġrain":737,"Ġye":738,"ĠOp":739,"ata":740,"atter":741,"ines":742,"itrif":743,"Ġpol":744,"Ġpop":745,"Ġpeak":746,"Ġpub":747,"Ġsiz":748,"Ġ(>":749,"Ġ(%),":750,"Ġtime":751,"Ġmg":752,"Ġmonitoring":753,"icro":754,"Ġas":755,"Ġaer":756,"Ġapp":757,"Ġres":758,"Ġresid":759,"Ġindic":760,"gest":761,"mento":762,"ments":763,"rol":764,"rop":765,"ross":766,"Ġbio":767,"razil":768,"cts":769,"logical":770,"Ġ12":771,"lev":772,"Ġhour":773,"Ġuse":774,"olum":775,"Ġgreen":776,"agement":777,"ceed":778,"ulic":779,"ulation":780,"ĠPer":781,"ump":782,"ĠCO":783,"ĠCost":784,"Ġ20":785,"Ġeff":786,"ĠBrazil":787,"able":788,"ability":789,"Ġcapex":790,"Ġprofil":791,"Ġperform":792,"Ġdigest":793,"ĠLand":794,"ĠLei":795,"ampl":796,"ameter":797,"Ġplants":798,"ĠInf":799}